#ifndef AUDIO_CLASSIFICATION_MODEL_H
#define AUDIO_CLASSIFICATION_MODEL_H
#include <stddef.h>
extern const unsigned char audio_classification_model[];
extern const size_t audio_classification_model_len;
const unsigned char audio_classification_model[] = {
    0x7B, 0x22, 0x66, 0x6F, 0x72, 0x6D, 0x61, 0x74, 0x22, 0x3A, 0x20, 0x22, 0x6C, 0x61, 0x79, 0x65,
    0x72, 0x73, 0x2D, 0x6D, 0x6F, 0x64, 0x65, 0x6C, 0x22, 0x2C, 0x20, 0x22, 0x67, 0x65, 0x6E, 0x65,
    0x72, 0x61, 0x74, 0x65, 0x64, 0x42, 0x79, 0x22, 0x3A, 0x20, 0x22, 0x6B, 0x65, 0x72, 0x61, 0x73,
    0x20, 0x76, 0x32, 0x2E, 0x31, 0x32, 0x2E, 0x30, 0x22, 0x2C, 0x20, 0x22, 0x63, 0x6F, 0x6E, 0x76,
    0x65, 0x72, 0x74, 0x65, 0x64, 0x42, 0x79, 0x22, 0x3A, 0x20, 0x22, 0x54, 0x65, 0x6E, 0x73, 0x6F,
    0x72, 0x46, 0x6C, 0x6F, 0x77, 0x2E, 0x6A, 0x73, 0x20, 0x43, 0x6F, 0x6E, 0x76, 0x65, 0x72, 0x74,
    0x65, 0x72, 0x20, 0x76, 0x34, 0x2E, 0x36, 0x2E, 0x30, 0x22, 0x2C, 0x20, 0x22, 0x6D, 0x6F, 0x64,
    0x65, 0x6C, 0x54, 0x6F, 0x70, 0x6F, 0x6C, 0x6F, 0x67, 0x79, 0x22, 0x3A, 0x20, 0x7B, 0x22, 0x6B,
    0x65, 0x72, 0x61, 0x73, 0x2E, 0x69, 0x6E, 0x70, 0x75, 0x74, 0x5F, 0x6C, 0x61, 0x79, 0x65, 0x72,
    0x73, 0x22, 0x3A, 0x20, 0x5B, 0x7B, 0x22, 0x6E, 0x61, 0x6D, 0x65, 0x22, 0x3A, 0x20, 0x22, 0x49,
    0x6E, 0x70, 0x75, 0x74, 0x31, 0x22, 0x2C, 0x20, 0x22, 0x73, 0x68, 0x61, 0x70, 0x65, 0x22, 0x3A,
    0x20, 0x5B, 0x32, 0x2C, 0x20, 0x33, 0x2C, 0x20, 0x34, 0x5D, 0x7D, 0x2C, 0x20, 0x7B, 0x22, 0x6E,
    0x61, 0x6D, 0x65, 0x22, 0x3A, 0x20, 0x22, 0x49, 0x6E, 0x70, 0x75, 0x74, 0x32, 0x22, 0x2C, 0x20,
    0x22, 0x73, 0x68, 0x61, 0x70, 0x65, 0x22, 0x3A, 0x20, 0x5B, 0x33, 0x2C, 0x20, 0x34, 0x2C, 0x20,
    0x35, 0x5D, 0x7D, 0x2C, 0x20, 0x7B, 0x22, 0x6E, 0x61, 0x6D, 0x65, 0x22, 0x3A, 0x20, 0x22, 0x49,
    0x6E, 0x70, 0x75, 0x74, 0x33, 0x22, 0x2C, 0x20, 0x22, 0x73, 0x68, 0x61, 0x70, 0x65, 0x22, 0x3A,
    0x20, 0x5B, 0x34, 0x2C, 0x20, 0x35, 0x2C, 0x20, 0x36, 0x5D, 0x7D, 0x5D, 0x7D
};

const size_t audio_classification_model_len = sizeof(audio_classification_model);

#endif  // AUDIO_CLASSIFICATION_MODEL_H
